0000000101110101
0000011011101000
0000001010011010
0000000011010110
0000001010010011
0000000101111010
0000000100111001
0000001101111001
0000000111100111
0000001111100011
0000001111100110
0000000111110101
0000001101011101
0000001100100111
0000001011011001
0000000101100110
0000011111011010
0000001001101011
0000001110010110
0000000011111110
0000001001011011
0000001111110101
0000011011001111
0000000111111110
0000010111110010
0000000011101011
0000010101001100
0000011010111001
0000001101101101
0000001011111001
0000000111001010
0000000100011110
0000000111101100
0000010101100011
0000000101001010
0000000011001111
0000001001100100
0000010010100110
0000001010110011
0000010101010001
0000011111111111
0000001100111101
0000011110010010
0000001001111010
0000001011001111
0000000110010100
0000000110110111
0000001011011100
0000001001001100
0000011100111111
0000001011110101
0000010001101011
0000001010110001
0000000110101111
0000001111101101
0000000100101110
0000010011001010
0000000110111011
0000000110111111
0000000111101110
0000000101110100
0000000101010011
0000001001111110
0000010011011101
0000001011010100
0000010110111010
0000001001001001
0000010101110101
0000000011111010
0000001010011110
0000001111100110
0000001100011111
0000000011100111
0000000110011110
0000001010111001
0000011110111010
0000001111110111
0000000011111111
0000001001101111
0000001010011100
0000000011010101
0000001101010101
0000001001010111
0000000011010110
