0000000110110110
0000000110101101
0000000011110101
0000001001111101
0000000100101001
0000001110101011
0000011100110001
0000000111010111
0000001001001000
0000000110100110
0000010111001100
0000001111111100
0000001001011011
0000000101010001
0000010101111110
0000001111001010
0000000100011101
0000000100101110
0000000011011001
0000010110111111
0000000101001111
0000001110111011
0000000110010110
0000000011101001
0000001010110011
0000000011100101
0000001100111001
0000011011010110
0000010011100011
0000010111110111
0000000011110111
0000001101011001
0000000011011101
0000000111010011
0000000100011011
0000000101000111
0000001001111101
0000000100110111
0000001101000111
0000001111011011
0000010100110110
0000000011011110
0000000101110011
0000000110001101
0000000110101111
0000001110111111
0000011110100111
0000000111110100
0000000011101101
0000001100111010
0000000101111010
0000000101010101
0000001010100111
0000000110011001
0000001101011110
0000000110011110
0000001111011110
0000000111111110
0000000110111010
0000000100111111
0000001011011110
0000000011111110
0000001111111110
0000001010110100
0000001001101100
0000000011011111
0000010101110110
0000000101110101
0000000101101011
0000011111010110
0000000101101101
0000000100011111
0000000110010111
0000000111010110
0000000111110100
0000001001011011
0000001110010010
0000001001001010
0000001101111011
0000001101011011
0000011001110110
0000001011101100
0000000100101001
0000011011111111
0000011011001011
0000000110101110
0000000111010011
0000001101110100
0000001001100011
0000001111111011
0000001101100110
0000010101100011
0000010001110101
0000011001101001
0000000011101011
0000000111100110
0000000100101110
0000001110001101
0000000011110111
0000001011011011
0000000100011101
0000000100111101
0000001101000111
0000001101110011
0000011001110111
0000010001101100
0000001010111101
0000001110101010
0000011101101100
0000000011010101
0000000111110010
0000001111010111
0000010010011111
0000000100110110
0000000100111100
0000000110111100
0000001100111101
0000001010111010
0000011100110011
0000000011011101
