0000001000111110
0000000011111111
0000000100011110
0000000100111001
0000000101110101
0000000110110110
0000001001111101
0000000111011101
0000010010111000
0000001001111001
0000001111110001
0000001111011001
0000001111010111
0000000101100110
0000001010011011
0000000101111011
0000001010011110
0000000111000110
0000001001011100
0000010101111011
0000000111011110
0000000100111010
0000001001110011
0000001110110010
0000001010111110
0000000011110001
0000000100111110
0000000101001100
0000010110111100
0000000110010011
0000001000110110
0000010001101110
0000000101001101
0000000111110111
0000000101011110
0000000101111101
0000010100100011
0000011111111110
0000001010111100
0000000101100011
0000000111100110
0000001010100100
0000000100101010
0000001010010011
0000000110111010
0000000011100111
0000010110011101
0000000100111010
0000010010011101
0000001011000110
0000010010101110
0000001010110111
0000001010001111
0000001010110100
0000011111000111
0000000110110011
0000001001011111
0000001010011010
0000000011101011
0000011110111110
0000000111010100
0000000100011111
0000001010001101
0000011001010101
0000000101011001
0000010101101101
0000010110100111
0000001001101110
0000001011001001
0000000110011111
0000011001001011
0000000101011010
0000000101011001
0000000111101110
0000000110010101
0000000100101111
0000001110101010
0000000111111010
0000001001101111
0000001001101110
0000000110011001
0000000011011011
0000000011100111
0000001011101010
0000001000110101
0000001001111010
0000000011111111
0000000110101010
0000001110011001
0000000110010111
0000010110101010
0000010110100111
0000001011010111
0000001011100011
0000000100111010
0000000111001011
0000001001011110
0000000011011001
0000001010010100
0000000111100011
0000001001101100
0000001001100110
0000000100011110
0000000100011110
0000000111010110
0000000110101111
0000000011111111
0000000111100011
0000001101011101
0000001011110101
0000000011111001
0000000011100110
0000010101011101
0000011111100101
0000000111111101
0000010100101001
0000000011111111
0000001100111011
0000000110101001
0000000101011010
0000001010011111
0000000111001101
0000001111011101
0000000101111011
0000000101111110
0000001001111011
0000011001011111
0000001001100100
0000000110101011
0000000110010101
0000001000111101
0000011001111001
0000001101010111
0000001011110011
0000000101101010
0000000111110001
0000011011010001
0000001010100110
0000001101001111
0000010101111011
0000000110111011
0000000101011010
0000001001100111
0000001001011010
0000010101110100
0000011010101100
0000001010110010
0000000110010010
0000000100011010
0000000101001101
0000001011001110
0000001011110101
0000001000111110
0000000011101101
0000000011011111
0000011101111100
0000001001001101
0000000111111011
0000000011011101
0000001110110100
0000001001110001
0000000111101000
0000000110001111
0000010110111001
0000001001001011
0000010111011111
0000000110010001
0000000101101011
0000001001001110
0000000110011001
0000001100101110
0000011010010101
0000000110011000
0000001010011101
0000000011110100
0000000011001101
0000000111010101
0000001100111111
0000000111101100
0000000110110010
0000000111101111
0000000011101011
0000001101101110
0000001010111110
0000001011110011
0000000011110011
0000001011001111
0000001111101111
0000001011110111
0000000011101101
0000000101110111
0000001111111110
0000000111001001
0000001001100101
0000011010100011
0000001010100110
0000000111010001
0000010111011001
0000011001111101
0000001001100101
0000000101101001
0000000110111011
0000000101001101
0000011010110110
0000001001110010
0000001100111001
0000010011010111
0000000111000111
0000000101111100
0000011110110111
0000000011110111
0000000011110111
0000001010001110
0000011110011101
0000000101111010
0000001010101100
0000001011101101
0000011100111011
0000000111100011
0000000110100110
0000000111011001
0000010101010111
0000001001110111
0000001001101101
0000000110111111
0000001011010101
0000000110001101
0000000111001100
0000001010101110
0000000101111011
0000000111000111
0000011010110110
0000001010100100
0000000111011100
0000001110011110
0000001010011111
0000000110010010
0000011010011111
0000001110111010
0000000101111101
0000011001101011
0000001010001110
0000001110110011
0000011111001001
0000001011010101
0000001011110011
0000000111111001
0000011011011010
0000001010010011
0000001011110101
0000000111011111
0000000111010101
0000000011010101
0000000111001101
0000000011110011
0000011111011011
0000001011011011
0000000111011001
0000000011111101
0000000111100111
0000000011011010
0000000110100111
0000000101001100
0000011100110011
0000010100110100
0000000100101100
0000010111011011
0000000101100111
0000000111101001
0000000101100011
0000011111110011
0000001101101010
0000000101010110
0000000110010110
0000000100111101
0000001010110100
0000000011011111
0000000100111011
0000001001001001
0000000111011001
0000001011010010
0000000111111011
0000011001010111
0000000101100101
0000000111101010
0000001111111101
0000000111111100
0000000011010101
0000000011010110
0000000111010011
0000010110001101
0000000110010001
0000000101111010
0000000110010110
0000001001001110
0000001111011111
0000000111001101
0000001001101101
0000010110110110
0000000111111010
0000001011001110
0000000111011100
0000000101111011
0000000111010100
0000010011101111
0000000011101100
0000000100100011
0000000100011001
0000010011101111
0000000101101001
0000000110111101
0000000111111001
0000001011110111
0000001001010111
0000000111001111
0000001110111101
0000000110111010
0000001010100111
0000001011001101
0000000101111111
0000000110010010
0000001111000110
0000001001111110
0000000011111100
0000000100110101
0000001110110110
0000000110101111
0000010110111111
0000000100011111
0000000111001100
0000001010111010
0000000111110011
0000001100101110
0000000101010110
0000001110011010
0000000110101011
0000001001001101
0000001110101111
0000000101101010
0000000011110111
0000001000110111
0000001001110100
0000001001011001
0000011100011111
0000001010011110
0000000111110101
0000000111001100
0000000111110101
0000001001000111
0000000101111101
0000001000111101
0000001101010100
0000000101101111
0000001100011111
0000000011001101
0000001001011100
0000000101110110
0000001001100011
0000011111111111
0000011010111011
0000000100111011
0000000110110110
0000001001101111
0000001001001110
0000000100110110
0000001010111001
0000000011100110
0000001110011111
0000001111011100
0000001001010100
0000011111101001
0000011111001001
0000000101011110
0000000100101101
0000001100110110
0000001010010111
0000001011110111
0000001100101100
0000000110111110
0000001010111000
0000000111001101
0000000110010111
0000000111111110
0000000100110111
0000000111111111
0000001111110010
0000000110011110
0000001001100111
0000010101111010
0000001011111101
0000001000110111
0000001101011111
0000001010110011
0000010101101110
0000000111001111
0000000110100101
0000001011011100
0000000100101001
0000010110010110
0000011011011001
0000000101111101
0000001001101011
0000010111001101
0000000111011010
0000000110011101
0000001001011101
0000000100111001
0000000100101111
0000000100110100
0000010111010010
0000000011011100
0000000100111100
0000000111001010
0000001110101110
0000000111110100
0000001011110011
0000011010001101
0000000111011011
0000000110101010
0000000101111001
0000001100100111
0000001010100110
0000001011011100
0000001011110100
0000010111010101
0000001100110110
0000010100101101
0000001010111110
0000000111010010
0000000011001101
0000000110111000
0000000110010111
0000000111011111
0000000101101101
0000011001100011
0000000110001111
0000001011001011
0000010110110111
0000010111001010
0000010101011101
0000010101111111
0000001001011000
0000000110011001
0000000111011011
0000010001101001
0000001001001001
0000001000111101
0000000011100111
0000001000110101
0000001001100011
0000000111101010
0000000101101101
0000001001111011
0000000011001111
0000001101111010
0000000101011111
0000000100101111
0000000100110001
0000000110100101
0000001001001010
0000000101001001
0000001001111011
0000001010111110
0000000111101010
0000000110110001
0000001011000111
0000011101110101
0000001001110111
0000001001111110
0000000011101011
0000001010001110
0000000111111111
0000000110110101
0000000100111111
0000011111011111
0000000011110011
0000000111100101
0000000100011001
0000000100011011
0000001101000111
0000000101100011
0000000110010110
0000000011011111
0000000110110101
0000000011101111
0000001001100011
0000000011100111
0000000111001001
0000000111111001
0000001101111010
0000000100011101
0000000011101001
0000000011011101
0000011001011011
0000000110100110
0000001010110111
0000000111101010
0000001000110101
0000001001000110
0000010110001101
0000001001100111
0000010110110111
0000001001101101
0000000111100110
0000001101001101
0000000011101011
0000001001111100
0000000011110010
0000000101101111
0000011010111011
0000010011100101
0000000111110100
0000001111101101
0000011001001100
0000000111001001
0000011000111011
0000001001011001
0000000101101100
0000001000111111
0000001001011001
0000010110101001
0000000101110010
0000001011111110
0000010011100011
0000001001111001
0000001001101110
0000000101100110
0000000101111001
0000011010110010
0000000110010011
0000010101001100
0000010010111011
0000000111011111
0000000111111011
0000011101010011
0000000100011100
0000000110111001
0000001110110010
0000000110100110
0000001001000111
0000000011100101
0000011010100101
0000000100111010
0000001001110110
0000000110110111
0000001001100011
0000000100101101
0000011010110010
0000010010111000
0000000111100101
0000001110011101
0000000111010110
0000000111001101
0000000111110011
0000010111010011
0000001011110011
0000001100100101
0000001010010100
0000000110010101
0000000110110011
0000000111101101
0000001001111101
0000001111001101
0000000111111001
0000000111100110
0000000101100011
0000000101110101
0000001001101111
0000000011010110
0000001100011111
0000000111011100
0000000101010101
0000010010011110
0000011101100111
0000000111110100
0000000110110101
0000001001010010
0000001111011101
0000000101111100
0000000100111111
0000001101000111
0000000110100110
0000000101111000
0000010110100101
0000001010101110
0000000100100101
0000011001101010
0000001011100111
0000001101100100
0000001101011111
0000001110111000
0000000011111101
0000001001111011
0000001111111101
0000000100110001
0000000110011010
0000001001000110
0000001001011000
0000000101000111
0000001110110101
0000000011101111
0000000011101100
0000001100110100
0000000011010011
0000000100111110
0000001010010011
0000011111100011
0000001101101010
0000000111101110
0000000101101101
0000000101111110
0000000101111000
0000001010111011
0000001111111011
0000000011111101
0000001010001101
0000001001010110
0000000111001111
0000000011100111
0000000110011110
0000001111011011
0000000101011000
0000001011101011
0000011101010001
0000011000111001
0000001011101111
0000000110011110
0000001111011001
0000001001001011
0000011111010100
0000000110111001
0000000101101011
0000000011111011
0000000011011101
0000000110011110
0000001000111110
0000000101010111
0000011100111101
0000001000111011
0000001010111111
0000010111011001
0000001011101111
0000000111110111
0000011111000111
0000001001011111
0000001111011110
0000000101010010
0000010111110110
0000000011110011
0000000100101010
0000000110111001
0000011110011011
0000000101001010
0000011100110010
0000000011010101
0000000110010001
0000000110100111
0000001000111010
0000000110011101
0000000111111000
0000001011010011
0000000101110101
0000001011011011
0000001000110110
0000000110110111
0000000110010010
0000011101011101
0000000101100011
0000010100111101
0000000110110111
0000001111101000
0000011011011101
0000001001001011
0000001101011101
0000000110101001
0000000110111011
0000000110011110
0000010111111001
0000000111001001
0000000110101101
0000010101011111
0000001111101010
0000000100110001
0000000100101111
0000010100100101
0000011110110111
0000000011101101
0000000011100011
0000010010101001
0000000111010110
0000000111010110
0000000111011011
0000000101001001
0000001000110101
0000000100111001
0000001101010010
0000001001100111
0000001001100101
0000000111011001
0000011101111110
0000000101001001
0000000111001101
0000000101100111
0000001010111101
0000011100011010
0000000101000111
0000000110011011
0000000111011011
0000000011110010
0000011011011100
0000000111111010
0000000100111010
0000001111001101
0000001101001111
0000000111111100
0000000111000111
0000001010111011
0000001101101010
0000000111101100
0000000011101101
0000010001110101
0000001001011110
0000000110100100
0000001011110011
0000001011001000
0000000111111110
0000010011000111
0000000111001101
0000000011010111
0000001011011011
0000000101000111
0000000100110010
0000000110101000
0000001001001010
0000000100100101
0000000101111110
0000010111001011
0000000100110100
0000000111110010
0000000101111100
0000011101100101
0000001011010100
0000000101001001
0000000100100111
0000001000111101
0000000111110111
0000000100101110
0000000110101111
0000000111001111
0000001001111111
0000001011001101
0000000111001101
0000000111110111
0000000111011101
0000001001011111
0000011010010101
0000000101101111
0000000111000111
0000000110011000
0000001001110001
0000000101010010
0000001001011001
0000000111001010
0000000011110110
0000001001111111
0000000110111010
0000001111111001
0000001010110111
0000001010011101
0000000111111001
0000000110100111
0000001111111001
0000001011101001
0000001000110110
0000000101110110
0000001011101111
0000011010101100
0000000100110101
0000000101010011
0000001010110011
0000001000110111
0000001010100110
0000010001111010
0000011101111010
0000000110110011
0000011010110011
0000001101111110
0000001000111101
0000000101010011
0000001010010110
0000000110110111
0000001001010100
0000001001101110
0000000101111010
0000000110010001
0000000111010011
0000000011101011
0000011111101110
0000000101101001
0000010110111011
0000000100110111
0000011111011100
0000001010110010
0000000011010001
0000011101001001
0000000111100100
0000000111111110
0000000110001111
0000000100011110
0000000110100110
0000000110101001
0000000101011101
0000000110101010
0000000011111101
0000000110100100
0000001001001110
0000010111101111
0000000110110100
0000010010110111
0000000111110010
0000001001101011
0000001000111000
0000011010111010
0000011111011001
0000001001110111
0000000111011101
0000010111100011
0000000111011001
0000000101011101
0000000110001110
0000000111010110
0000000110110100
0000000110001100
0000001001000111
0000011100110110
0000000101111101
0000001010111100
0000000111001100
0000000100101011
0000000100110100
